{"Ā": 0, "ā": 1, "Ă": 2, "ă": 3, "Ą": 4, "ą": 5, "Ć": 6, "ć": 7, "Ĉ": 8, "ĉ": 9, "Ċ": 10, "ċ": 11, "Č": 12, "č": 13, "Ď": 14, "ď": 15, "Đ": 16, "đ": 17, "Ē": 18, "ē": 19, "Ĕ": 20, "ĕ": 21, "Ė": 22, "ė": 23, "Ę": 24, "ę": 25, "Ě": 26, "ě": 27, "Ĝ": 28, "ĝ": 29, "Ğ": 30, "ğ": 31, "Ġ": 32, "!": 33, "\"": 34, "#": 35, "$": 36, "%": 37, "&": 38, "'": 39, "(": 40, ")": 41, "*": 42, "+": 43, ",": 44, "-": 45, ".": 46, "/": 47, "0": 48, "1": 49, "2": 50, "3": 51, "4": 52, "5": 53, "6": 54, "7": 55, "8": 56, "9": 57, ":": 58, ";": 59, "<": 60, "=": 61, ">": 62, "?": 63, "@": 64, "A": 65, "B": 66, "C": 67, "D": 68, "E": 69, "F": 70, "G": 71, "H": 72, "I": 73, "J": 74, "K": 75, "L": 76, "M": 77, "N": 78, "O": 79, "P": 80, "Q": 81, "R": 82, "S": 83, "T": 84, "U": 85, "V": 86, "W": 87, "X": 88, "Y": 89, "Z": 90, "[": 91, "\\": 92, "]": 93, "^": 94, "_": 95, "`": 96, "a": 97, "b": 98, "c": 99, "d": 100, "e": 101, "f": 102, "g": 103, "h": 104, "i": 105, "j": 106, "k": 107, "l": 108, "m": 109, "n": 110, "o": 111, "p": 112, "q": 113, "r": 114, "s": 115, "t": 116, "u": 117, "v": 118, "w": 119, "x": 120, "y": 121, "z": 122, "{": 123, "|": 124, "}": 125, "~": 126, "ġ": 127, "Ģ": 128, "ģ": 129, "Ĥ": 130, "ĥ": 131, "Ħ": 132, "ħ": 133, "Ĩ": 134, "ĩ": 135, "Ī": 136, "ī": 137, "Ĭ": 138, "ĭ": 139, "Į": 140, "į": 141, "İ": 142, "ı": 143, "Ĳ": 144, "ĳ": 145, "Ĵ": 146, "ĵ": 147, "Ķ": 148, "ķ": 149, "ĸ": 150, "Ĺ": 151, "ĺ": 152, "Ļ": 153, "ļ": 154, "Ľ": 155, "ľ": 156, "Ŀ": 157, "ŀ": 158, "Ł": 159, "ł": 160, "¡": 161, "¢": 162, "£": 163, "¤": 164, "¥": 165, "¦": 166, "§": 167, "¨": 168, "©": 169, "ª": 170, "«": 171, "¬": 172, "Ń": 173, "®": 174, "¯": 175, "°": 176, "±": 177, "²": 178, "³": 179, "´": 180, "µ": 181, "¶": 182, "·": 183, "¸": 184, "¹": 185, "º": 186, "»": 187, "¼": 188, "½": 189, "¾": 190, "¿": 191, "À": 192, "Á": 193, "Â": 194, "Ã": 195, "Ä": 196, "Å": 197, "Æ": 198, "Ç": 199, "È": 200, "É": 201, "Ê": 202, "Ë": 203, "Ì": 204, "Í": 205, "Î": 206, "Ï": 207, "Ð": 208, "Ñ": 209, "Ò": 210, "Ó": 211, "Ô": 212, "Õ": 213, "Ö": 214, "×": 215, "Ø": 216, "Ù": 217, "Ú": 218, "Û": 219, "Ü": 220, "Ý": 221, "Þ": 222, "ß": 223, "à": 224, "á": 225, "â": 226, "ã": 227, "ä": 228, "å": 229, "æ": 230, "ç": 231, "è": 232, "é": 233, "ê": 234, "ë": 235, "ì": 236, "í": 237, "î": 238, "ï": 239, "ð": 240, "ñ": 241, "ò": 242, "ó": 243, "ô": 244, "õ": 245, "ö": 246, "÷": 247, "ø": 248, "ù": 249, "ú": 250, "û": 251, "ü": 252, "ý": 253, "þ": 254, "ÿ": 255, "Ġt": 256, "he": 257, "Ġa": 258, "ou": 259, "Ġs": 260, "Ġm": 261, "Ġw": 262, "in": 263, "ha": 264, "re": 265, "nd": 266, "Ġthe": 267, "Ġb": 268, "is": 269, "or": 270, "Ġf": 271, "er": 272, "ll": 273, "it": 274, "on": 275, "Ġd": 276, "Ġc": 277, "Ġn": 278, "Ġl": 279, "Ġy": 280, "es": 281, "en": 282, "Ġth": 283, "ar": 284, "Ġh": 285, "Ġo": 286, "Ġto": 287, "Ġyou": 288, "Ġp": 289, "hat": 290, "ĠI": 291, "Ġhe": 292, "ve": 293, "ot": 294, "Ġand": 295, "st": 296, "ow": 297, "ing": 298, "an": 299, "Ġof": 300, "om": 301, "Ġg": 302, "at": 303, "Ġbe": 304, "se": 305, "Ġmy": 306, "Ġin": 307, "ce": 308, "Ġha": 309, "le": 310, "ay": 311, "ld": 312, "ir": 313, "et": 314, "ed": 315, "ut": 316, "Ġme": 317, "im": 318, "ith": 319, "'s": 320, "Ġnot": 321, "ch": 322, "Ġthat": 323, "Ġis": 324, "gh": 325, "And": 326, "Ġfor": 327, "ke": 328, "Ġu": 329, "our": 330, "Ġwe": 331, "oo": 332, "ill": 333, "Ġe": 334, "her": 335, "Ġwith": 336, "ent": 337, "Ġit": 338, "Ġyour": 339, "ad": 340, "ri": 341, "Ġthou": 342, "Ġst": 343, "'d": 344, "Ġk": 345, "ome": 346, "Ġhis": 347, "ght": 348, "ord": 349, "id": 350, "as": 351, "The": 352, "Ġre": 353, "Ġhave": 354, "IN": 355, "ly": 356, "ra": 357, "Ġli": 358, "Ġhim": 359, "ur": 360, "Ġthis": 361, "al": 362, "IO": 363, "Ġso": 364, "EN": 365, "Ġas": 366, "Ġde": 367, "Ġon": 368, "ore": 369, "hi": 370, "ro": 371, "ould": 372, "ood": 373, "ck": 374, "ain": 375, "ver": 376, "AR": 377, "est": 378, "Ġthy": 379, "Ġsha": 380, "ess": 381, "ea": 382, "Ġdo": 383, "Ġwill": 384, "am": 385, "Ġno": 386, "Ġbut": 387, "us": 388, "and": 389, "US": 390, "if": 391, "Ġse": 392, "ge": 393, "Th": 394, "Ġall": 395, "Ġsu": 396, "ake": 397, "To": 398, "Ġher": 399, "ru": 400, "ion": 401, "Ġan": 402, "ter": 403, "ard": 404, "Ġlo": 405, "han": 406, "ell": 407, "ear": 408, "Ġsp": 409, "th": 410, "Ġthee": 411, "Ġour": 412, "Ġfa": 413, "Ġshall": 414, "Ġby": 415, "UC": 416, "il": 417, "Ġare": 418, "ING": 419, "ĠC": 420, "Ġne": 421, "rom": 422, "Ġkn": 423, "ho": 424, "AN": 425, "ĠR": 426, "That": 427, "Ġv": 428, "ER": 429, "OR": 430, "ast": 431, "ct": 432, "ous": 433, "Ġwhat": 434, "ight": 435, "Ġsh": 436, "ul": 437, "Ġ'": 438, "ET": 439, "ant": 440, "ES": 441, "Ġup": 442, "sel": 443, "qu": 444, "But": 445, "art": 446, "Ġgood": 447, "row": 448, "ine": 449, "ath": 450, "Ġlord": 451, "hich": 452, "ust": 453, "'ll": 454, "one": 455, "Ġpr": 456, "Ġcom": 457, "Ġat": 458, "Ġman": 459, "ĠM": 460, "What": 461, "Ġun": 462, "Ġwhe": 463, "ĠE": 464, "KING": 465, "Ġam": 466, "end": 467, "Ġcon": 468, "ic": 469, "ble": 470, "ry": 471, "ong": 472, "ie": 473, "Ġbl": 474, "ive": 475, "Ġfrom": 476, "ven": 477, "ĠG": 478, "Ġshe": 479, "For": 480, "Ġgo": 481, "are": 482, "Ġmore": 483, "IC": 484, "out": 485, "Ġthem": 486, "au": 487, "Ġwas": 488, "oth": 489, "other": 490, "He": 491, "Ġsir": 492, "ol": 493, "Ġnow": 494, "ĠL": 495, "Ġhat": 496, "ost": 497, "Ġif": 498, "LO": 499, "ind": 500, "Ġthere": 501, "Ġwould": 502, "Ġknow": 503, "Ġcan": 504, "ers": 505, "IUS": 506, "ep": 507, "fe": 508, "self": 509, "ARD": 510, "ather": 511, "res": 512, "ond": 513, "ate": 514, "Ġsay": 515, "Ġhere": 516, "Ġlove": 517, "Ġsw": 518, "Ġtheir": 519, "Ġbr": 520, "pp": 521, "Ġor": 522, "--": 523, "ĠS": 524, "all": 525, "Ġsee": 526, "Ġthan": 527, "Ġthen": 528, "Ġking": 529, "Ġus": 530, "ĠO": 531, "ĠB": 532, "Ġthey": 533, "Ġar": 534, "od": 535, "My": 536, "Ġlet": 537, "ig": 538, "Ġwor": 539, "ure": 540, "ink": 541, "ĠH": 542, "ort": 543, "ame": 544, "hy": 545, "ĠV": 546, "fore": 547, "As": 548, "Ġmay": 549, "el": 550, "Ġcome": 551, "Ġqu": 552, "ook": 553, "Whe": 554, "un": 555, "ish": 556, "LI": 557, "Ġwell": 558, "KE": 559, "ves": 560, "Ġj": 561, "Ġone": 562, "Ġhath": 563, "irst": 564, "You": 565, "Ġmake": 566, "reat": 567, "ak": 568, "gain": 569, "Ġmust": 570, "ound": 571, "Ġgra": 572, "Ġwere": 573, "Ġho": 574, "ci": 575, "Ġlike": 576, "ue": 577, "eak": 578, "TIO": 579, "Ġshould": 580, "ity": 581, "Ġpro": 582, "ĠP": 583, "Ġsa": 584, "Ġmad": 585, "um": 586, "Ġpl": 587, "em": 588, "Ġfather": 589, "AU": 590, "Ġhad": 591, "OM": 592, "Ġdid": 593, "ime": 594, "Ġupon": 595, "ice": 596, "ON": 597, "Ġtoo": 598, "pe": 599, "ence": 600, "ĠW": 601, "oun": 602, "ist": 603, "ward": 604, "Ġdeath": 605, "own": 606, "Ġen": 607, "man": 608, "ose": 609, "to": 610, "IS": 611, "ful": 612, "Ġr": 613, "Ġpo": 614, "Ġwhen": 615, "Ġspeak": 616, "entle": 617, "Ġout": 618, "Ġwhich": 619, "ICH": 620, "io": 621, "pt": 622, "Ġfri": 623, "OL": 624, "DU": 625, "Ġagain": 626, "DUKE": 627, "In": 628, "Ġhow": 629, "de": 630, "EL": 631, "ign": 632, "ĠA": 633, "ick": 634, "Ġtru": 635, "Ġheart": 636, "Ġhand": 637, "Ġyet": 638, "CA": 639, "Thou": 640, "very": 641, "ICHARD": 642, "ENTIO": 643, "With": 644, "ance": 645, "Ġsome": 646, "Ġwho": 647, "Which": 648, "If": 649, "ies": 650, "Ġmar": 651, "ire": 652, "Ġhon": 653, "Ġmine": 654, "har": 655, "orn": 656, "Ġoff": 657, "ince": 658, "INC": 659, "ĠY": 660, "ack": 661, "Ġson": 662, "Ġdis": 663, "Ġal": 664, "'t": 665, "ng": 666, "We": 667, "wn": 668, "Ġhea": 669, "uch": 670, "oy": 671, "First": 672, "Ġhear": 673, "Ġtime": 674, "nce": 675, "AB": 676, "Ġsuch": 677, "ness": 678, "ec": 679, "LA": 680, "Ġbrother": 681, "Of": 682, "Ġblood": 683, "ither": 684, "Ġab": 685, "UE": 686, "Ġthese": 687, "Why": 688, "No": 689, "Ġgive": 690, "Ġfo": 691, "Ġday": 692, "ĠII": 693, "Ġear": 694, "ĠRICHARD": 695, "ise": 696, "Ġex": 697, "Ġro": 698, "This": 699, "TER": 700, "Ġlife": 701, "eet": 702, "Ġtell": 703, "So": 704, "UCH": 705, "Ġthink": 706, "Ġlook": 707, "oul": 708, "Ġey": 709, "Ġword": 710, "Ġwhere": 711, "een": 712, "ther": 713, "age": 714, "Ġtake": 715, "UCES": 716, "GLO": 717, "Ġfriend": 718, "UCESTER": 719, "GLOUCESTER": 720, "ef": 721, "erv": 722, "ag": 723, "ady": 724, "rown": 725, "Ġdes": 726, "ings": 727, "ave": 728, "not": 729, "urse": 730, "Ġgentle": 731, "RY": 732, "How": 733, "Ġri": 734, "ase": 735, "way": 736, "urn": 737, "INCENTIO": 738, "QUE": 739, "QUEEN": 740, "Ġlea": 741, "tis": 742, "ĠOF": 743, "Ġart": 744, "Ġmost": 745, "Where": 746, "Ġhonour": 747, "BR": 748, "LAN": 749, "Ġmuch": 750, "Ġsl": 751, "Ġwar": 752, "Ġfl": 753, "ment": 754, "Ġmade": 755, "Now": 756, "Ġhast": 757, "Ġtw": 758, "Ġfear": 759, "ĠT": 760, "aught": 761, "ENRY": 762, "Ġbet": 763, "Is": 764, "LE": 765, "ber": 766, "ĠGod": 767, "ved": 768, "ough": 769, "Ġbre": 770, "ff": 771, "cc": 772, "ower": 773, "Ġnever": 774, "ĠVINCENTIO": 775, "Be": 776, "ap": 777, "ĠK": 778, "igh": 779, "Ġfair": 780, "Ġgreat": 781, "ee": 782, "itt": 783, "Ġmen": 784, "Ġnew": 785, "Who": 786, "ĠRome": 787, "aster": 788, "orrow": 789, "uke": 790, "iz": 791, "ORK": 792, "old": 793, "ation": 794, "Ġpart": 795, "INIUS": 796, "ree": 797, "ide": 798, "ount": 799, "Or": 800, "Ġcall": 801, "ple": 802, "Ġany": 803, "Ġheaven": 804, "Ġad": 805, "Ġcomm": 806, "It": 807, "Your": 808, "Ġstand": 809, "Ġtrue": 810, "Ġcannot": 811, "DW": 812, "Ġbeen": 813, "ears": 814, "Ġname": 815, "DWARD": 816, "Ġcl": 817, "Ġpre": 818, "Ġsweet": 819, "Ġpray": 820, "Ġdoth": 821, ",--": 822, "hing": 823, "UM": 824, "PET": 825, "Ġnoble": 826, "TH": 827, "Ġple": 828, "ass": 829, "LUC": 830, "Ġown": 831, "ĠD": 832, "Ġper": 833, "ouse": 834, "Ay": 835, "ull": 836, "Come": 837, "There": 838, "Ġwr": 839, "ife": 840, "Ġdone": 841, "aw": 842, "ts": 843, "Ġtr": 844, "Ġway": 845, "Ġhead": 846, "Ġother": 847, "ger": 848, "Ġmean": 849, "red": 850, "When": 851, "Ġnor": 852, "MEN": 853, "dward": 854, "EO": 855, "Ġsc": 856, "Ġpres": 857, "ROM": 858, "Ġsoul": 859, "ROMEO": 860, "ving": 861, "Ġbear": 862, "ace": 863, "ĠCl": 864, "Ġnight": 865, "ENIUS": 866, "Ġworld": 867, "MENENIUS": 868, "ause": 869, "Ġbefore": 870, "Ġboth": 871, "Ġqueen": 872, "ms": 873, "per": 874, "Then": 875, "aughter": 876, "li": 877, "Ġmo": 878, "Ġchi": 879, "Here": 880, "RUCH": 881, "PETRUCH": 882, "PETRUCHIO": 883, "ty": 884, "Ġdead": 885, "able": 886, "Ġvery": 887, "TES": 888, "By": 889, "ite": 890, "Ġra": 891, "the": 892, "Ġke": 893, "Than": 894, "ĠF": 895, "les": 896, "Ġdown": 897, "Ġcont": 898, "Ġmyself": 899, "Ġapp": 900, "os": 901, "HA": 902, "GR": 903, "Ġwh": 904, "Ġrem": 905, "ĠLord": 906, "Ġthus": 907, "ORIO": 908, "LANUS": 909, "ORIOLANUS": 910, "ab": 911, "Sec": 912, "Ġleave": 913, "CORIOLANUS": 914, "Second": 915, "Ġbeing": 916, "ction": 917, "ĠEdward": 918, "Nor": 919, "ress": 920, "Ġgrace": 921, "sw": 922, "Ġbeg": 923, "less": 924, "Ġeyes": 925, "BA": 926, "led": 927, "land": 928, "Ġmother": 929, "Ġma": 930, "ran": 931, "Ġold": 932, "Ġim": 933, "INA": 934, "ĠEDWARD": 935, "itiz": 936, "itizen": 937, "ps": 938, "Ġever": 939, "ĠMar": 940, "Ġlong": 941, "lo": 942, "Ġlive": 943, "Ġchild": 944, "Let": 945, "aint": 946, "Ġwife": 947, "She": 948, "Ġrep": 949, "ĠIII": 950, "Ġaway": 951, "Ġwom": 952, "Ġpoor": 953, "Ġfriends": 954, "Ġaf": 955, "for": 956, "come": 957, "Ġmight": 958, "wick": 959, "nder": 960, "Ġstay": 961, "eace": 962, "ks": 963, "oud": 964, "atch": 965, "Ġdie": 966, "ĠJ": 967, "Ġru": 968, "Ġcomes": 969, "Ġcons": 970, "arwick": 971, "ows": 972, "Ġmany": 973, "Ġcrown": 974, "Ġpe": 975, "Tis": 976, "hall": 977, "ison": 978, "Ġle": 979, "ĠYORK": 980, "iss": 981, "Ġhar": 982, "Ġthought": 983, "Ġrest": 984, "uck": 985, "ISAB": 986, "ELLA": 987, "Ġhouse": 988, "ISABELLA": 989, "erc": 990, "ian": 991, "Ġcour": 992, "Ġent": 993, "Ġlie": 994, "RAN": 995, "che": 996, "ren": 997, "Ġset": 998, "JU": 999, "ors": 1000, "atter": 1001, "well": 1002, "LIET": 1003, "LEON": 1004, "ĠWarwick": 1005, "JULIET": 1006, "LEONTES": 1007, "Nay": 1008, "Ġgone": 1009, "Ġbetter": 1010, "ittle": 1011, "Ġdaughter": 1012, "MI": 1013, "ought": 1014, "rant": 1015, "Ġprince": 1016, "DY": 1017, "His": 1018, "Ġtong": 1019, "Ġnothing": 1020, "CE": 1021, "VOL": 1022, "LADY": 1023, "ENCE": 1024, "TA": 1025, "ied": 1026, "Ġkeep": 1027, "Ġwit": 1028, "Go": 1029, "ces": 1030, "Ġsle": 1031, "Ġres": 1032, "Well": 1033, "ious": 1034, "hard": 1035, "Ġnews": 1036, "ier": 1037, "ool": 1038, "Ġtri": 1039, "Ġgri": 1040, "SIC": 1041, "une": 1042, "Ġthose": 1043, "SICINIUS": 1044, "ss": 1045, "ont": 1046, "Not": 1047, "Ġlords": 1048, "Ġagainst": 1049, "Ġlittle": 1050, "Ġhour": 1051, "ford": 1052, "Ġbest": 1053, "ardon": 1054, "akes": 1055, "Ġhence": 1056, "Un": 1057, "ew": 1058, "sed": 1059, "lse": 1060, "Ġface": 1061, "ilt": 1062, "Ġfoll": 1063, "Ġacc": 1064, "On": 1065, "ud": 1066, "PR": 1067, "ark": 1068, "Ġend": 1069, "Ġyoung": 1070, "ork": 1071, "Ġthing": 1072, "Ġstill": 1073, "ield": 1074, "Ġkind": 1075, "ST": 1076, "Ġpri": 1077, "Ġpur": 1078, "alk": 1079, "Thy": 1080, "Ġcomp": 1081, "LUCIO": 1082, "ins": 1083, "ĠIV": 1084, "ale": 1085, "Ġput": 1086, "Ġtwo": 1087, "Ġpower": 1088, "ichard": 1089, "Ġcha": 1090, "Ġhimself": 1091, "cl": 1092, "ret": 1093, "Ġgu": 1094, "ried": 1095, "Ġdear": 1096, "Pro": 1097, "iness": 1098, "Ġfirst": 1099, "cious": 1100, "Ġpeace": 1101, "Ġelse": 1102, "ert": 1103, "Sir": 1104, "ason": 1105, "hile": 1106, "Ġsub": 1107, "ail": 1108, "Ġunto": 1109, "ĠAn": 1110, "ft": 1111, "Ġsm": 1112, "ile": 1113, "ray": 1114, "uty": 1115, "Ġtill": 1116, "RI": 1117, "Ġco": 1118, "Ġbid": 1119, "Ġtra": 1120, "Ġhus": 1121, "ect": 1122, "ETH": 1123, "Ġtherefore": 1124, "ĠELI": 1125, "Ġback": 1126, "ZAB": 1127, "Ġearth": 1128, "Ġwords": 1129, "Ġcount": 1130, "ĠELIZAB": 1131, "ĠELIZABETH": 1132, "Ġdre": 1133, "men": 1134, "yal": 1135, "Ġcould": 1136, "ius": 1137, "band": 1138, "Ġfind": 1139, "Have": 1140, "ople": 1141, "Ġtongue": 1142, "orse": 1143, "Ġneed": 1144, "Ġthine": 1145, "Ġlady": 1146, "ĠYork": 1147, "tw": 1148, "int": 1149, "get": 1150, "Ġfell": 1151, "Ġforth": 1152, "enry": 1153, "Ġhope": 1154, "HENRY": 1155, "Ġhigh": 1156, "lp": 1157, "St": 1158, "eth": 1159, "Ġhome": 1160, "MER": 1161, "eech": 1162, "ĠRomeo": 1163, "Ġhusband": 1164, "CL": 1165, "Ġright": 1166, "Ġduke": 1167, "rer": 1168, "Ġban": 1169, "uth": 1170, "Ġthough": 1171, "WAR": 1172, "ĠWhat": 1173, "WIC": 1174, "fort": 1175, "ĠVI": 1176, "WARWIC": 1177, "WARWICK": 1178, "me": 1179, "UT": 1180, "ix": 1181, "Ġche": 1182, "vere": 1183, "ged": 1184, "ach": 1185, "Ġbra": 1186, "hip": 1187, "ister": 1188, "Ġmind": 1189, "Ġchar": 1190, "ĠHENRY": 1191, "Ġpeople": 1192, "ds": 1193, "Nurse": 1194, "ĠCitizen": 1195, "Ġtre": 1196, "They": 1197, "HAM": 1198, "ĠHenry": 1199, "PU": 1200, "eed": 1201, "Ġbri": 1202, "Ġchan": 1203, "IAN": 1204, "Ġshow": 1205, "LET": 1206, "Ġconf": 1207, "Ġhands": 1208, "Ġlaw": 1209, "ĠRichard": 1210, "PULET": 1211, "be": 1212, "EY": 1213, "Ġgl": 1214, "Ġonce": 1215, "Ġwhy": 1216, "Ġsaid": 1217, "Ġmaster": 1218, "Ġcause": 1219, "Ġimp": 1220, "GE": 1221, "MIO": 1222, "Good": 1223, "ousin": 1224, "Ġnone": 1225, "Ġbod": 1226, "Ġjoy": 1227, "ervant": 1228, "Shall": 1229, "All": 1230, "Ġfort": 1231, "Ġbring": 1232, "Ġdou": 1233, "ates": 1234, "Yet": 1235, "UCKING": 1236, "Ġevery": 1237, "BRUT": 1238, "UCKINGHAM": 1239, "BRUTUS": 1240, "ird": 1241, "iet": 1242, "Ġlight": 1243, "From": 1244, "ESS": 1245, "OKE": 1246, "Ġmist": 1247, "ĠBOL": 1248, "INGBR": 1249, "Ġpass": 1250, "TRAN": 1251, "BUCKINGHAM": 1252, "ĠBOLINGBR": 1253, "TRANIO": 1254, "ĠBOLINGBROKE": 1255, "bt": 1256, "Do": 1257, "Ġwo": 1258, "Ġthr": 1259, "Ġnat": 1260, "Will": 1261, "vost": 1262, "swer": 1263, "Ġroyal": 1264, "lt": 1265, "its": 1266, "ary": 1267, "cle": 1268, "PER": 1269, "ĠMAR": 1270, "Ġcame": 1271, "TIS": 1272, "Ġwhose": 1273, "Ġtears": 1274, "Ġplease": 1275, "lf": 1276, "vy": 1277, "ory": 1278, "roke": 1279, "Ġpardon": 1280, "NE": 1281, "Cl": 1282, "Ġbes": 1283, "Ġdev": 1284, "GAR": 1285, "Ġheard": 1286, "arry": 1287, "Ġhapp": 1288, "Ġarm": 1289, "Ġjust": 1290, "pose": 1291, "Ġboy": 1292, "Ġfull": 1293, "Ġwrong": 1294, "Ġpresent": 1295, "ĠMARGAR": 1296, "ĠMARGARET": 1297, "Ġmis": 1298, "ens": 1299, "Ġere": 1300, "Ġland": 1301, "Ġlast": 1302, "ult": 1303, "Ġstate": 1304, "eel": 1305, "Ġsince": 1306, "ATH": 1307, "Ġplace": 1308, "MIL": 1309, "bl": 1310, "Ġmeet": 1311, "Ġkill": 1312, "ock": 1313, "sand": 1314, "Ġafter": 1315, "Ġunder": 1316, "cent": 1317, "esty": 1318, "ition": 1319, "ORD": 1320, "HOR": 1321, "Ġcare": 1322, "Ġhold": 1323, "Ġsorrow": 1324, "GRE": 1325, "ANGE": 1326, "Ġthousand": 1327, "ANGELO": 1328, "CU": 1329, "Our": 1330, "arence": 1331, "Ġwhom": 1332, "ARINA": 1333, "Ġfollow": 1334, "Ġhelp": 1335, "Ġfar": 1336, "day": 1337, "Ġless": 1338, "ceive": 1339, "Ġweep": 1340, "selves": 1341, "cius": 1342, "Ġenem": 1343, "Ġhither": 1344, "Ġabout": 1345, "Ġeye": 1346, "Ġshame": 1347, "KATH": 1348, "KATHARINA": 1349, "ons": 1350, "Ġpat": 1351, "Ġfal": 1352, "Ġsun": 1353, "iol": 1354, "urde": 1355, "Ġfool": 1356, "Ġanswer": 1357, "An": 1358, "Ġch": 1359, "irt": 1360, "air": 1361, "Ġfall": 1362, "asure": 1363, "Ġmaid": 1364, "Up": 1365, "Ġbus": 1366, "LUS": 1367, "thy": 1368, "Ġhate": 1369, "ESCA": 1370, "Ġgentleman": 1371, "ĠKing": 1372, "Ġgrief": 1373, "Ġgracious": 1374, "Ġcousin": 1375, "ESCALUS": 1376, "ove": 1377, "imes": 1378, "Ġstri": 1379, "Ġinto": 1380, "Ġmakes": 1381, "ject": 1382, "ild": 1383, "Ġstre": 1384, "Hath": 1385, "ĠEng": 1386, "Ġwoman": 1387, "iv": 1388, "OS": 1389, "Ġdost": 1390, "ices": 1391, "Ġhum": 1392, "Ġcoun": 1393, "DUCH": 1394, "Ġturn": 1395, "ĠDuke": 1396, "Ġsleep": 1397, "Ġcomfort": 1398, "urderer": 1399, "DUCHESS": 1400, "itor": 1401, "Ġbel": 1402, "pher": 1403, "Lord": 1404, "alt": 1405, "Ġover": 1406, "Ġtalk": 1407, "Ġbody": 1408, "Ġbu": 1409, "Ġgr": 1410, "ute": 1411, "tend": 1412, "deed": 1413, "morrow": 1414, "gelo": 1415, "Ġwilt": 1416, "ĠMarcius": 1417, "Ġi": 1418, "IA": 1419, "Ġbed": 1420, "ised": 1421, "ieve": 1422, "Ġseem": 1423, "Ġprove": 1424, "Ġplay": 1425, "ience": 1426, "CAMIL": 1427, "ĠClarence": 1428, "CAMILLO": 1429, "ere": 1430, "ans": 1431, "Ġinst": 1432, "omet": 1433, "Ġwel": 1434, "ade": 1435, "Ġret": 1436, "ily": 1437, "Ġdra": 1438, "Ġdeed": 1439, "Ġthank": 1440, "God": 1441, "Ġsound": 1442, "Ġser": 1443, "TEN": 1444, "illain": 1445, "hold": 1446, "Ġvo": 1447, "Ġfight": 1448, "Ġsword": 1449, "Ġcourt": 1450, "vereign": 1451, "Ġfalse": 1452, "Ġindeed": 1453, "ĠAngelo": 1454, "HORTEN": 1455, "HORTENS": 1456, "Sh": 1457, "Ġbo": 1458, "ouch": 1459, "Ġuse": 1460, "Ġeven": 1461, "Ġanother": 1462, "Ġgrave": 1463, "Ġadv": 1464, "FRI": 1465, "Ġfellow": 1466, "Provost": 1467, "Upon": 1468, "Ġsovereign": 1469, "HORTENSIO": 1470, "FRIAR": 1471, ",'": 1472, "Ġhas": 1473, "Ġem": 1474, "Ġcur": 1475, "ury": 1476, "eal": 1477, "pect": 1478, "BAP": 1479, "Ġbanish": 1480, "Ġfortune": 1481, "TISTA": 1482, "BAPTISTA": 1483, "pl": 1484, "YC": 1485, "pen": 1486, "Ġass": 1487, "Ġsend": 1488, "Ġwant": 1489, "Ġreven": 1490, "fect": 1491, "AUT": 1492, "COM": 1493, "Ġrather": 1494, "Ġprison": 1495, "Ġmerc": 1496, "Ġmatter": 1497, "Ġcountry": 1498, "OLYC": 1499, "COMINIUS": 1500, "AUTOLYC": 1501, "AUTOLYCUS": 1502, ".'": 1503, "Are": 1504, "Ġlies": 1505, "Ġonly": 1506, "More": 1507, "Even": 1508, "Ġwish": 1509, "Ġyears": 1510, "ARENCE": 1511, "Ġreason": 1512, "Ġtruth": 1513, "Third": 1514, "Ġvirt": 1515, "of": 1516, "ior": 1517, "any": 1518, "Ġdan": 1519, "Would": 1520, "ENES": 1521, "ĠBut": 1522, "Ġpers": 1523, "rance": 1524, "Ġbreath": 1525, "Ġarms": 1526, "Ġdream": 1527, "Ġdoubt": 1528, "pherd": 1529, "CLARENCE": 1530, "dd": 1531, "der": 1532, "ener": 1533, "Ġgi": 1534, "Ġsent": 1535, "Ġstra": 1536, "BEN": 1537, "MAR": 1538, "NOR": 1539, "Ġdisc": 1540, "VOLIO": 1541, "Ġshalt": 1542, "Clown": 1543, "Ġbusiness": 1544, "BENVOLIO": 1545, "Al": 1546, "by": 1547, "At": 1548, "hed": 1549, "Ġsen": 1550, "Ġspir": 1551, "Ġprom": 1552, "Ġholy": 1553, "erving": 1554, "Ġenough": 1555, "Ġcommand": 1556, "UMIO": 1557, "PERO": 1558, "PROS": 1559, "GRUMIO": 1560, "PROSPERO": 1561, "ia": 1562, "ken": 1563, "ars": 1564, "ator": 1565, "Ġbea": 1566, "Ġlay": 1567, "Ġcra": 1568, "Ġsold": 1569, "Ġsea": 1570, "Ġfare": 1571, "Ġwind": 1572, "Ġswear": 1573, "Ġpity": 1574, "Ġhang": 1575, "Ġcontent": 1576, "Ġstran": 1577, "Ġproud": 1578, "MERCU": 1579, "ĠMurderer": 1580, "MERCUTIO": 1581, "eter": 1582, "ike": 1583, "Ġdep": 1584, "Ġsec": 1585, "Ġdare": 1586, "Ġlives": 1587, "gainst": 1588, "ĠKate": 1589, "LUCENTIO": 1590, "Ġremem": 1591, "Ġnature": 1592, "Ġwelcome": 1593, "Ġvillain": 1594, "Tw": 1595, "ham": 1596, "com": 1597, "Ġgre": 1598, "Ġget": 1599, "Ġwithin": 1600, "ester": 1601, "ĠCome": 1602, "Ġtend": 1603, "Ġsaw": 1604, "Ġmadam": 1605, "POM": 1606, "LAND": 1607, "Ġfree": 1608, "Ġkiss": 1609, "Ġgods": 1610, "Ġhappy": 1611, "POMP": 1612, "hal": 1613, "vers": 1614, "Ġcity": 1615, "PAU": 1616, "apt": 1617, "Were": 1618, "Ġfoul": 1619, "Ġserv": 1620, "LINA": 1621, "Ġsister": 1622, "Ġbeseech": 1623, "Ġsomet": 1624, "PAULINA": 1625, "ery": 1626, "Ġden": 1627, "att": 1628, "use": 1629, "ient": 1630, "Ġyours": 1631, "Ġoath": 1632, "onder": 1633, "ague": 1634, "Ġbreak": 1635, "YORK": 1636, "Ġthree": 1637, "Ġmeans": 1638, "Ġyield": 1639, "ertain": 1640, "gether": 1641, "GREMIO": 1642, "Ġsubject": 1643, "POMPEY": 1644, "yb": 1645, "PO": 1646, "Ġaw": 1647, "Ġmer": 1648, "anc": 1649, "ANT": 1650, "usic": 1651, "LIX": 1652, "Ġborn": 1653, "Ġbloody": 1654, "Ġlooks": 1655, "eft": 1656, "Ġthings": 1657, "UMN": 1658, "like": 1659, "ĠNor": 1660, "ches": 1661, "Ġwhile": 1662, "Ġhorse": 1663, "POLIX": 1664, "VOLUMN": 1665, "POLIXENES": 1666, "VOLUMNIA": 1667, "up": 1668, "Ġwin": 1669, "Her": 1670, "ues": 1671, "Ġspo": 1672, "Ġfaith": 1673, "INGS": 1674, "rong": 1675, "Ġyourself": 1676, "Ġsupp": 1677, "Ġwound": 1678, "Ġtem": 1679, "GON": 1680, "Ġfire": 1681, "enger": 1682, "Ġmaj": 1683, "centio": 1684, "Ġtraitor": 1685, "ĠServing": 1686, "ybalt": 1687, "STINGS": 1688, "ĠServingman": 1689, "bs": 1690, "rem": 1691, "Say": 1692, "Ġlam": 1693, "Ġdru": 1694, "ĠLAU": 1695, "Ġmark": 1696, "Ġcommon": 1697, "Ġchildren": 1698, "RENCE": 1699, "Ġmistress": 1700, "broke": 1701, "essenger": 1702, "HASTINGS": 1703, "ĠLAURENCE": 1704, "BY": 1705, "Ġbeat": 1706, "Ġdef": 1707, "Ġval": 1708, "BER": 1709, "Ġrequ": 1710, "Ġcond": 1711, "Therefore": 1712, "form": 1713, "Ġuncle": 1714, "Ġmajesty": 1715, "FF": 1716, "Ġsin": 1717, "Ġtold": 1718, "Ġmet": 1719, "Was": 1720, "Ġsoon": 1721, "Ġseen": 1722, "Ġlate": 1723, "Look": 1724, "CLI": 1725, "Ġsave": 1726, "Ġdays": 1727, "Ġdeser": 1728, "Ġaff": 1729, "THUM": 1730, "Ġwoe": 1731, "ĠEngland": 1732, "Ġtender": 1733, "Ġleft": 1734, "BERLAND": 1735, "CLIFF": 1736, "NORTHUM": 1737, "NORTHUMBERLAND": 1738, "ID": 1739, "Ġmon": 1740, "ring": 1741, "ced": 1742, "bed": 1743, "ides": 1744, "idow": 1745, "ever": 1746, "Ġdoes": 1747, "Ġsure": 1748, "Take": 1749, "Ġsight": 1750, "Though": 1751, "Ġreturn": 1752, "Ġmercy": 1753, "Ġgener": 1754, "Ġfarewell": 1755, "ac": 1756, "mp": 1757, "hes": 1758, "rel": 1759, "Ġsit": 1760, "ten": 1761, "dom": 1762, "Ġsad": 1763, "ters": 1764, "earn": 1765, "ĠAN": 1766, "Ġgold": 1767, "Ġdeep": 1768, "unes": 1769, "Ġmarry": 1770, "Ġfoot": 1771, "ĠJul": 1772, "Ġwarrant": 1773, "Ġthrough": 1774, "Ġheavy": 1775, "Ġpurpose": 1776, "Ġdanger": 1777, "ĠANNE": 1778, "Ah": 1779, "und": 1780, "mer": 1781, "aim": 1782, "ours": 1783, "Ġill": 1784, "vent": 1785, "Did": 1786, "Ġcho": 1787, "ict": 1788, "Ġgrow": 1789, "Give": 1790, "INCE": 1791, "Ġnurse": 1792, "ments": 1793, "Ġcold": 1794, "ifford": 1795, "CAPULET": 1796, "ignior": 1797, "Ġtogether": 1798, "PRINCE": 1799, "az": 1800, "ceed": 1801, "enty": 1802, "aid": 1803, "Ġask": 1804, "ush": 1805, "Ġlost": 1806, "Ġwithout": 1807, "oling": 1808, "Ġreport": 1809, "Ġpluck": 1810, "Ġliege": 1811, "arewell": 1812, "ross": 1813, "oriol": 1814, "Ġtimes": 1815, "Ġbelieve": 1816, "Ġspirit": 1817, "olingbroke": 1818, "sh": 1819, "no": 1820, "gs": 1821, "ling": 1822, "Ġwat": 1823, "Ġair": 1824, "Ġheir": 1825, "ets": 1826, "ains": 1827, "Ġage": 1828, "outh": 1829, "Ġthyself": 1830, "Ġsays": 1831, "Ġjo": 1832, "Whose": 1833, "Ġloss": 1834, "ĠMont": 1835, "One": 1836, "Ġstrange": 1837, "Ġlearn": 1838, "ĠBolingbroke": 1839, "ca": 1840, "xt": 1841, "ner": 1842, "Had": 1843, "ial": 1844, "Ġcry": 1845, "ALO": 1846, "aking": 1847, "Ġears": 1848, "Ġhaste": 1849, "Ġsuff": 1850, "Ġentreat": 1851, "Ġdevil": 1852, "Ġground": 1853, "Should": 1854, "Ġperson": 1855, "ĠJuliet": 1856, "ĠClifford": 1857, "Wh": 1858, "Ġag": 1859, "oman": 1860, "ined": 1861, "Ġfly": 1862, "Ġmur": 1863, "Ġfast": 1864, "Ġvis": 1865, "Ġpast": 1866, "night": 1867, "aud": 1868, "ĠLu": 1869, "Ġtoward": 1870, "Ġfriar": 1871, "Ġdisp": 1872, "Ġslain": 1873, "Ġbetw": 1874, "ixt": 1875, "Ġjustice": 1876, "Ġfault": 1877, "ĠFrance": 1878, "Ġstraight": 1879, "Like": 1880, "Ġremember": 1881, "IZ": 1882, "FL": 1883, "ina": 1884, "May": 1885, "Some": 1886, "Ġord": 1887, "These": 1888, "ution": 1889, "Ġnear": 1890, "Ġsil": 1891, "ĠCA": 1892, "AUF": 1893, "entleman": 1894, "Ġquick": 1895, "Ġtrust": 1896, "Ġalone": 1897, "Ġdesire": 1898, "Ġcurse": 1899, "Ġbold": 1900, "Ġworthy": 1901, "Ġinstru": 1902, "Ġbeauty": 1903, "Ġservice": 1904, "Ġstrong": 1905, "IDIUS": 1906, "ORIZ": 1907, "ĠCAPULET": 1908, "AUFIDIUS": 1909, "FLORIZ": 1910, "FLORIZEL": 1911, "so": 1912, "ithe": 1913, "ĠIs": 1914, "ning": 1915, "Can": 1916, "with": 1917, "ION": 1918, "adam": 1919, "Tell": 1920, "VER": 1921, "ured": 1922, "Ġfound": 1923, "Ġready": 1924, "Ġrun": 1925, "Ġhard": 1926, "Ġbrought": 1927, "Ġposs": 1928, "Ġenemy": 1929, "Ġtouch": 1930, "Ġrevenge": 1931, "Ġgeneral": 1932, "audio": 1933, "Ha": 1934, "vo": 1935, "!'": 1936, "SE": 1937, "Ġinf": 1938, "Ġwoo": 1939, "amill": 1940, "Ġlose": 1941, "ible": 1942, "aun": 1943, "Ġknows": 1944, "Ġcanst": 1945, "Ġitself": 1946, "ĠSen": 1947, "inks": 1948, "unt": 1949, "cept": 1950, "umber": 1951, "ĠHere": 1952, "Ġthoughts": 1953, "Ġgrant": 1954, "Ġmarried": 1955, "Ġduty": 1956, "Ġcharge": 1957, "ĠTybalt": 1958, "ĠSenator": 1959, "Sp": 1960, "ua": 1961, "lou": 1962, "Ġiss": 1963, "Ġwear": 1964, "Ġread": 1965, "CIUS": 1966, "eep": 1967, "Ġquar": 1968, "ĠYou": 1969, "Ġprof": 1970, "RICHARD": 1971, "Ġmarri": 1972, "Ġmorn": 1973, "Bec": 1974, "Ġstands": 1975, "Ġdeli": 1976, "ched": 1977, "Ġhours": 1978, "BAST": 1979, "ship": 1980, "Ġspeed": 1981, "Ġconfess": 1982, "Ġstreng": 1983, "Shepherd": 1984, "Against": 1985, "cester": 1986, "Ġtwenty": 1987, "ithee": 1988, "SEBAST": 1989, "SEBASTIAN": 1990, "gu": 1991, "ĠN": 1992, "OW": 1993, "Ġmin": 1994, "ones": 1995, "Ġcar": 1996, "Ġhell": 1997, "Ġint": 1998, "Ġinc": 1999}